010000001000001111001101101000110110010001000
000001101110111010010010011010011000001100011
111101111000010000011111100010000010000000000
000110101000110111110010000000111001101011110
001110111101010111011101111001000011110011100
000110010000001000100010000001111101110011111
111110001100001000110100011001001000011111100
000011111111111001010001100000001011111111111
000000000000000000000000000000000000000000000
000110000100010000000001000100110110000000011
000001111100001111111111100010111100000100001
110101011011111010110110100010010100000111110
111110000000011111100001000111110000001101000
001011111100000011110011011111001011110111111
111111111011111111100000100001000100001000000
000000000000000000000000000000000000000000000
