010000010011011010001101111100000010001001000
000110001101100110100010001001101111101100000
000000000000001000101111100001000101111011110
111101101011100000000010011111001100101000011
111001110000001110011101111101010100111100111
111111110011110000010010000010000010010000011
111000011100100110010100000011000010001111111
111111111100101000000001100101111111111100001
000000000000000000000000000000000000000000000
000110000011011001000001000000000100000100011
000010000111110000101111111111000011111100000
111100000101010000100110101011111111011011010
010000001111000001110001011110000110000011111
111111110100101111110011001111000001111100101
000000001000010000010000111110111111111011111
000000000000000000000000000000000000000000000
