000011111111100000100001000001001001111111110
111011110100000111011110100000000000001100111
000010000000000000001111111111000010000000000
000110010000011000110001011111111011110111100
000010001000010001000011000100111111110111100
000010001000010000000000011111111101111011111
111010000100001111000000000000111010000100001
000001111100010111011110100000111101111100010
000000000000000000000000000000000000000000000
000010001000000000010000011110000001111111111
000000000011111000010000000000000100000000000
000001111100000110101100011100111110010101000
000010001011100000110001011100000100000111111
111110000000101111011101000000110101110000011
000000000000000000000000000000000100001000001
000000000000000000000000000000000000000000000
001011111000000000010001000010000010001100000
111010001100010111111110111101111110000000001
000001111100000111111111100000000001111100000
000011111011001000100000000000000001111100000
111001100010011001100001011111111100000000001
000010000011110000010001000001000000000000000
111100001111111000000000100000000000001100001
000000001000010000010000000010000010000000001
000000000000000000000000000000000000000000000
000110000000000000010001000010000010000100000
000001111100000111111111111111000000000011111
000000011000101000001111100010000101111100000
000101111000000111110000111111000000000111111
000000010000100000010000100100000100000000011
000000000100001000000000000000000000000011111
000000000000000000000000000000000000000000000
000010000111111001111100100011001011011000110
000101110000011111010001000011110110101011100
000000000000001000011111100010000011111100010
000011111000000111101111111110111110000011111
000110000100001111010000111110111100000111110
000011111100000000001111100000111110000000000
111100001011100110110100011000000000011110111
000011111100001111110000000001111100001100000
000000000000000000000000000000000000000000000
000001111111111000111110100000000101110000010
000000000100000000010000000001000101111100010
111101110100001110110001100000111100011011111
111111111000000001011110000010001001101000011
000101111000000111111111100011110110010000011
000000000100001000000000111111000010000000000
000000000000000000000000000000000000000000000
110100010000110001100010111001000011100000001
000010001111100000110000100100000001110100000
000001111100000111110000100001000000000111111
001000000111001111111101011100111100010000111
001100000111010000101100111010110110001000111
000010000011100111111110111111000010001000100
000011101111100111001110000100111100001111110
000101110111101111110000000011000010000100000
000000000000000000000000000000000000000000000
111100000011111000011111111110000010000000011
000000000100010000010000100000000001111100000
000101011111101110110001101111000110101011111
110100001000001000110000100001000010000000100
001011110011000111111101100011000000010000011
000000000000011000010010000011000010000011110
000000000000000000000000000000000000000000000
111000000100101001010001100011111011110011010
110101011111000111110000111110001000001000001
111111111011110111101111000000000000000000001
001100100000111000001110111111111101110111111
010000101101010001110001100000101101011011010
001000010000100111111110111110000010000100000
000101111111101000010000100000111110000000000
000100000011111111101111111111000100000100001
000000000000000000000000000000000000000000000
000010001000011000001111011111000000000100000
111111111000000000001111100000111111111111111
000111110110111101111110011101010000100100111
111111110100011111111101111111111110000111110
001100001111110111011110111011000100010000011
000000000000000000010000100001000011111100000
000000000000000000000000000000000000000000000
111101111111011000011111111001000001101111110
001010010000110001100001000111001000000000001
000000000000000000000000000000000011111100000
111011101111010111111111111110111100001000000
111011110011110111111111011011111100001100110
111101110111100111110000000000000000000100001
000000000100010000000001000011000100010100001
000001111100000000010000100011000110001000001
000000000000000000000000000000000000000000000
111111111111100000000000011101000001111111111
000010000111111000001111111111000011111111111
001000001100011000100010001010001100001011110
000000000111100000100000111011000001111011100
111101111111110000010000100110001010001100100
000010000100001000000000100000000001111111110
000000000000000000000000000000000000000000000
000011101100011111000000001011110010011000011
111000010100100111100100111011001111111010110
000000000000001111110000100000111100000100000
111110001000001000101111011011000111110011110
000000010000100001100001111010001101110011000
000000000100000000000000011110000001111111111
000110010111101010011110111010010001011111111
000000001111111000000001111100000010000111101
000000000000000000000000000000000000000000000
000001111000001000001111000100111010000100011
111100000000001111110000000011111110001000001
111110001111000000011111111000000101110100001
000001100100010111001110001001111000000101000
000000011000000000010011111000000010010111000
000001111111111000001111100000000000000000001
000000000000000000000000000000000000000000000
000010000100100111111101111100000100011000011
001010011100001000000010111111110011101011111
111110000000000000000000100010111111111011111
111101110011111000101111011111010000010000100
000100001111111110111100011011011110101101000
111101110011110001000001000000000010000100001
001010000011110000000000000000111111111111110
000000000011111000100001100000111011111011111
000000000000000000000000000000000000000000000
111111110111111000100000100001000010000100000
000011111100001000000000000000000000000000000
000101111011110001100110100110101001001011000
000011110011111000010000000010000101111011111
000011111011011000110100000001110111110111110
000000000100010000010000000000000000000000001
000000000000000000000000000000000000000000000
000110000100000111110000011010111001110111010
111010000111111001001111111101001100001011111
000001111111110000000000011110000000000011111
000100010000000000010001000010000010001100011
001000010100001001000001100001001000011000100
000010001000001000000000100001000010000100001
000100000100011001011111100011001000000100000
111110001000001000000001000001000100000111111
000000000000000000000000000000000000000000000
000100000100000111110000011110111111111111101
000010000000000000001111111110111111111011110
111011111111111000010000000001001100001111100
000100000011100111110000011010111001110111010
111110010000100000000001100001001000010011111
111111111100000000000000000000000001111111111
000000000000000000000000000000000000000000000
001110001011110001000000000010000000001100111
110110000001000110001110100101110011011011100
000000000000000000001111100001000010000000000
000011111011110000010010100000000110011000100
000100000000010111110001011111001110100000011
000101111011110000100001100001111110000100010
110110001100001110000000011111111001111011111
000011111000010111111111000010111011110000000
000000000000000000000000000000000000000000000
000110000111110000100001100011000000000000011
000010000100000000000000100000000000000000001
111000001100111111000000100101110111100011100
000110001111110000010011000100111110001000011
001001110000011111111110100110111001011100000
000010001000010111110000000001111110000000000
000000000000000000000000000000000000000000000
001001101011110001001111011011001000001111110
111100011100010110010011100100110000010001001
111111111100000111111111000001000001111000000
111111110011111000111111111110001000000011011
111010000000000111001110111111000001111011100
000001111011111000100000011110000000000111110
000010010011100111110010100000111000001100010
111100001000000111010001000001111000000000010
000000000000000000000000000000000000000000000
000111110111110000111111111101000100000111101
000001111100000000001111111111000010000011111
111100010100000110110010100100110011111000101
001011101111110001111111011011001110000111011
111010010011111110010011000011101110000100101
000000000000000111111111000000111111111111111
000000000000000000000000000000000000000000000
111100000000000111100000000000111110000100010
000101101100000001001111100010001100000000010
000000000011111000000000000000000000000000000
001000010000101000000000011110111011110111011
001110100001001000110000100000111011110011010
000100000100001000001111111110111111111011110
000101111000000000001110111110000001111011111
000101111111110000011111011110000011111111111
000000000000000000000000000000000000000000000
000000000100000111101111111111111101111100000
000000000000000000000000000000000000000000001
111111101111010111111110111110000110000000001
111011111011110111001111000001111110000000010
001010000011101000101110011011000111110011101
111110000000000000000000100001000000000100001
000000000000000000000000000000000000000000000
000110001111110001100000011100111001010100001
000000000100100111011111100100000010000011010
000000000000001000010000000000000100000011111
000110000011101000000001100010111100011000110
111011101111100000000010000011111100011100101
000010000011111111100000100010111110001100100
110110000000011110110010000010000100010011010
111111111100010111010000000011000010001011111
000000000000000000000000000000000000000000000
000100001011111000010000011111111101110100010
000000000111111000100000011110000001111000000
111011111100111110101111100100010000010011000
001000011011101001000000011011111101101000000
111001111100100110011110101000000010010100010
111110000000000000000000111111000101111111110
000000000000000000000000000000000000000000000
000001111011110111111100000011001010001011111
000110001111101001010100011100110000011100010
000000000000001000000000100001111110000000010
110011101100001111001110000001001001110111101
111101110111100110100000000011111101101011010
111011111000001111111110111111001000000111110
000001111011101001000011011100111110001100000
000000000011111000010001011111111110001000001
000000000000000000000000000000000000000000000
111011110100001000011110000000001010000111111
000000000000000000001111100000000000000000000
000010010000101010010100011101110100010100111
110111110100100000011110100000001010000011110
111101110111111001000010011101111110011000010
000010001000001000010000011111111110000000000
000000000000000000000000000000000000000000000
111100001000110111111110011110000110010000000
110111011111001001100010111111111100001000101
000000000011111111110000100001111111111100001
111110010100111111001101000010000101111111100
001010111000111101001110000101000001100111011
111010000100100111111110111111000110001011111
000101111011110000100010000001111110000100010
111001111111111000010000100000000010000100001
000000000000000000000000000000000000000000000
111101111100011000001111011110000010001100000
111111111000000111101111100000111110000000001
110101010110111010000011011101000000001000110
111101110000011000011110111101000000000100001
110011101111111000100001111110000010010000100
111111111011110000001111111111111110000000001
000000000000000000000000000000000000000000000
111001110011111111010001100001000011111100000
010100101000000001100000111111000100000011101
111110000100001111110000000000000000000000001
111111110011110001001110111101000001111100000
111111101011010001111110011010000011110011100
000011111111111000110000011111000010000000000
010001111111100001011111011100000011111011101
001000001111101000110000111110000010000111110
000000000000000000000000000000000000000000000
111111111000000000000000100000000001111100001
000000000000001000000001000001000000000000000
010010011111100000011101011011111100000011110
110101101100010111001111000010111011110000011
010010100011011001100010011011000100000111101
000000000011111111111111111111111110000011111
000000000000000000000000000000000000000000000
