111101111100100000010001000010111001111100001
001110001100000000001110111101000001110111101
000000000000001111111111100000000000000000001
111001110111101111110001000011000110010000011
111001110111111001000011000100000100001000001
111111111011110111110000000000000100001000001
000010000111101000000000011100000010000111101
000101111111110000001110111101000101111100000
000000000000000000000000000000000000000000000
111111111100000111100000000001000000001000001
000000000000010000000000000001111110000000000
010000010111111111001100011010000001111100000
111110000100010111000001000011111000001000001
000111110011010000001101011101001010000011111
000010001000010000000000000000000000000000000
000000000000000000000000000000000000000000000
000000001100001000100001000001000001111000101
000010000011111111011110111111000100001111101
000001111100000000001111111111000001111100000
000001111100000000000000000010110011111000001
000010000011110111110001000110100111100011100
000000000000000000010001000001111100000000001
000010001100000000000000100000111110001111110
000010000000001000100000000001000100001000000
000000000000000000000000000000000000000000000
000000000100001000100001000001000000000000011
111110000000000111111111111111000001111100000
000001111100010000101111100000001010011000000
111110000100000111110000111111000001111000010
000110000000010001000000100001001000010000000
111110000000000000000000000000000010000100000
000000000000000000000000000000000000000000000
001101011000101000111100100111111110000100001
111000101011011000110001011101000111110000010
000101111100001000101111100001000010000000000
111110000011111111101111111110000001111000001
111100000111110111100000111101000010000100011
000000000011111000001111100000000001111100001
101110011100000110000100011011111000001011110
000000001111110000010000011111000011111100001
000000000000000000000000000000000000000000000
000101110000010000001110100011111111111100000
000101111100010000010000000001000000000100000
111110011011110000000001111011000011110111110
000111101000100000101110000101000001111011111
000110010011011000111111111111000001111000010
000000000000001111110000100000000010000100000
000000000000000000000000000000000000000000000
000011100000001110010010100110001100010011010
000001110100000001000000100011111000001100001
111110000100000000010000111111000001111100000
001110010011110111001101011111110010000100100
001110001011011110101100100010110100000100110
001000001000001111111110111111111000000000001
111100001111110001001110011100111001101100001
000000000100001000110000011111111011110100010
000000000000000000000000000000000000000000000
000110000000001111101111100001111110000011110
000001111100000000000000100001000100000100000
111110101000011011110001111011111011011100010
001000000000001000010000100011000010001011010
000110010000000000111101111111110001110000101
111100000000001000110010000001000110000000000
000000000000000000000000000000000000000000000
110101110011101000110001100101001010000111100
000010001000100111100000111111110001011111010
000010000000000000001111011110111101111011111
111111110111110111111110100000001110100000110
110101011010110000000001100111010100101101000
000000000100001111101110111111001000010000100
000000000011111000000000100001111011111100010
000010000100010111111111111110111110000000010
000000000000000000000000000000000000000000000
000000000100000111111111000000000110001000001
111111111111111000001111100000000001111011111
001110100101000111011110010111101111110100011
111100000111111111111101111111000111110111111
000110010000010110111110111101111100001100110
000001111100001000010000100001000000000000000
000000000000000000000000000000000000000000000
111101101100000110011111100001110111111111110
000010000000100001110001000110001100010000101
000001111100001000000000000000000000000000000
000000001011110111101111111111110101101111101
001100001111110110111111011111111101110011101
000010000100000000000000011111111001110111110
000010010100010000110001000000000100000100000
000010001000011000110000100001000001111100000
000000000000000000000000000000000000000000000
111111111100000111010000000000111001111111111
111111111100001111111111100000111110000100001
111100001000110010100010000010000110001100100
111001111000000110110000100010111000000100000
001000001100101001100000100001111101111111110
111101111100000000000000100000000010000100001
000000000000000000000000000000000000000000000
000110011011001010110000011100000111101100001
101101111000111110110100111110001000010111100
000000000111110000000000111111000010000000000
111101110000011110111111000010000010001011111
110001110000110110100001100110001000010000000
111111111100000111100000000000000000000100000
111111011101000110101110101001111010010100011
111010000100001111000001100000111110001100000
000000000000000000000000000000000000000000000
000110000111101001001111000000000011111000000
000010001011111000110000011111000010000011110
000011110100010110001111100001110000001111111
010000000111100010011110011100000101100100000
110000010100001110000011100001000000011000000
000010000000000000001111100000111111111100000
000000000000000000000000000000000000000000000
000110011000010111001101111111001000000100001
111111101011001111110010100000000010011100101
111111111011111000100000100000000000000011111
001000010001000111111111000010111111110011110
010000101101111110111100011011111110001100010
000010000100001000000001000100111101110011110
111101111111111000000000000000111100000000101
111111111011101000000001100010111110000000000
000000000000000000000000000000000000000000000
000000000100001000010000100010111111110111111
000000000000000000000000000000000011111100001
110001001010100001100110100110111101111000010
111111111000010000100000000001111111110000001
111101110111011000010100000011110111111000001
000010000000000000000000000001000100000100000
000000000000000000000000000000000000000000000
110101110111100110100000011111000000000100011
111110001000110111011111100100111110000111101
111110000000000111100000000000111101111100000
000110001100001000100001000001000000010000010
001000011000100000010001100100000010010100100
000010000100001000010000100000000010001000001
000000000100100000111111100101000110000100010
111110000100010000010001000000000010001011111
000000000000000000000000000000000000000000000
111011111111111111100000011111000000000100010
111101111011111111101111100000000000000000001
111000001100110000010000000001111111111111101
110101110111100110100000011111111000000000010
111110010000100000010001100000001000010011111
111111111100000000000000000000000001111111111
000000000000000000000000000000000000000000000
001110001100000000100000000100111100001000111
111001011011001001011110111000010000000011011
000000000000001000011111100000000000000000000
001000011000011000000010100001111101111000001
000110100000111111110001011111000100000000010
000100000111111000010001100010111101111000010
111111111011100111110000011000000010001111011
000001110011101000101111011111000101111000001
000000000000000000000000000000000000000000000
000110000000000000110001100010111100000100011
000010000000000000000000100000000000000100001
111001100011011001010000111100001110001111100
000110001011111001000011000001111100001100011
000001011111100001101110111111000111110000100
000000000011111000010000011111000100001000001
000000000000000000000000000000000000000000000
111100001100100110111111000100111101101000100
010010010011000001000011111001000100011111110
000001111000000000011111011111000001111111111
110110000000100111101111100011111111110011111
111001111000000111111110111100000000000011101
111100000100000111100000000010111111111000000
000100001111100000000010111111111000010000001
000100000011100000010001011101000000001011110
000000000000000000000000000000000000000000000
111010000100010111011111100011111101110100011
111110000000001111111111100000000001111100000
001011111011001001000010111011000000010111110
110110000100111110111111000111111101101100101
001010000110111000110011011001111110010011101
111111111111111000001111011111000000000000000
000000000000000000000000000000000000000000000
000100000111111000000000011110000000000011110
000100000000110000101111100100000001101100010
000000000000000000000000000000111110000000000
110111110111101111100000000000001010010000100
110101110011101000000000100011010010100000111
111101111011111111101111100000000010000100010
111111111000000111101110100000000001111000010
111111111100001111101111000001111101111100010
000000000000000000000000000000000000000000000
000001111111110111111111111110000000000100000
000010000000000000000000000000000000000000000
000010000000011111101110111111110101101111111
000100000011111000011111011100111101111011101
111011110000011110111110000010111010000000101
000010000100000000010000100000000000000011111
000000000000000000000000000000000000000000000
000011010111100111000000000110111100001100011
110100000000001001001111111101001000000100000
111110000000010000000000000001000010000000000
001100011011110000100001100000111010000000011
001010011111110000110010000000111001101111101
001000001111111000100000111110111110000000001
110100010000010000100010011011000110000011011
111110001000001000110000011101000101111111111
000000000000000000000000000000000000000000000
000101110111110111110000000001111110001000010
000001111000000111100000000010111110000100000
110000010001000001001111111010001111111111101
000001101011110110110000000100111010011000100
000100010100001010001110111001001001111111100
111101111100010111110000100000000000000011111
000000000000000000000000000000000000000000000
111110001000101000111100011111111101111000000
000100011111000111000100000101111010001100011
000100000011111000010000100000000010000000000
111011110100100000011110011100000011101111001
110101101011110000110000011010111001110111110
111100000100100111111110111111000011111011101
000000001111111111000011000100111011111000000
000010001011111111110001000001111110000000000
000000000000000000000000000000000000000000000
111110000100101000001110000001000011110111101
000000000000000000001111100000000000000000000
001110010111010111010100001001001010010000001
111100000000101000001110100001001001110111011
000100011011111111010010000100111111110111110
000000000011111111110000000001000010001000001
000000000000000000000000000000000000000000000
000000010000011111101110011111001100001011110
001010001011110111110010100110110011011111011
000011111111111000010000111111111110000000000
111001111100010000101101011100001110010111111
110111100100000001011110010100001110111000101
111110001000011111111110111111001000000111101
000100000111111000010010000010111101111000010
000010000100001000000000100001111111111111100
000000000000000000000000000000000000000000000
000000001100001111101111000000000111111111110
000010000011111000001111111110000001111011111
001100001000000111010011001000101111010111010
000010000100000111011110100001000111110011110
001000010000001111100001100010111111101111001
000010000011111111111111100000111101111011111
000000000000000000000000000000000000000000000
000001111100001000010001111101111111110011100
111010000000010111110000100110000000101001010
000010000000000000000000011111000010000111111
000001111100000111011110100100111101110011111
111001110000001110101110000111110101101011111
000000000000001111110000000011111111111100001
111011111000001111001111000101111001111101000
111100000100001111100000100011111010001100100
000000000000000000000000000000000000000000000
000011111100000000000000100000000001111011111
000000000000000000010001000000000010000000000
111100000011110110111101000001111000011101001
000111110011101000101111011100000101101111010
111010000100010110110010000110110110100001001
111110000011111111111111111111111110000000000
000000000000000000000000000000000000000000000
