00010111011101100000001011101111101111110000011111110011111011110111001110111001110110001000001111011101111101111101111011101
00010111111111100011000000001100000111100000011101000100001100011111011110011110000000001011100111100010100110001010000111111
00000111111110110111110000000000110111101101011011111111111011111110011110000000000001110100000001001111100010111110000100010
00010001111111100001000111111011110111011111100001101101101011111111111111110110101110001100000111110000000101010010010000001
00000110111110100100001101100011111000010100100110111000100100010000110000001000001110010000100110110011100101000011110011011
00011111000001000000000000011100011110011101100001000101100100000111110001100000111101101100011111110001100010000001110100001
00001001011111111110000000001100100000001111111101000000001000000110111110000010111101110000010000101110100000000000001101111
00001000010001100010001000000100000001010000000011001000001000100111101110100001001010001011110111000001100010000011011110110
11100111011110111100000001101100001001111110100011000110001000011000110001011110000000000100011111100000111111000100000011100
11001111000001000001111101100111101111111111100100000010001011110000111111101010111001110111111110110010100001000000001111110
10110111001111111101000000000100101000101111000011010000001011000001000010001001000110010000100000100000011110000000001100001
11010111000000100000111110001100001000100010000001111100001000001000110000100000111100000111111001001110111101111010001100011
00101000111111000001111010001011101111100010111101111110001000100001000001011000110101111111110000011011011100111010001000101
11010110011100111100000010000000000000111110100101000100010100100000110001100010110110011111110000100001100000111101111000010
11011111011111100000110110001000101001001101110110000110011111110111010000100101001101111111111110100010000011000111111011100
00010111110001100000000111110111110000000011011101111011110100000111100000011000110110000111110111011110000000000110010000010
00011111001110000000111101111100000000100000011101111010001011111111101111111110111111110100000000000000000000111110001111101
00001000010000000000000011111100011111101111100000111111111100001111110000011110111011110011100111110001100110111100001100000
00101000111111110111110110001100000111111110100000111110001000001111101111100010000110000000000000000000111111111000000000000
00101010000000111101111100010100010001000100011111000100000100111111111110011110111111101100010000111111011111000010001101000
00100111101111000010000111110111110111001111000000111011110011111001101111111010000010011011110000000001011111111110000000001
00100000001101111110000010001111111000010000100000111110000100000110110000000100000011111111110000100011111110111011111100010
01010001100001111110110110010011111000001101100010001010000000011001010000011111001000010000000000101110100000111101111000001
00001111110010000110000010010100011001000000011010111101111111111111011101011110001000011000000110101111011111111101110011110
00000000101110100000000101110100001000010000000000111101110111111111010000000001111111111100000000101110011111111110000100001
11010111001110100110000111111100011001000001100000111001111100011111110000000000111110000100000111100010000100000001111111110
00001111111110011101000100000011011111011111100011110101111011110000101110111110111111110111111111010010000001000001111100011
11110111111110111111001001111011111111111111100011111110000000000111110001011111001001110011110111101110011011110101110011111
01000001100001011111000001111000100010001110011111111110001000011110110000100011111101110100001111101110111010111000000011110
00100000011111111110000010000000011000001110000000110111101011111111111111011110000101110000100000011111000100001100001000011
00000000100000000100001101101111101111111111111011111111110000000111000000011111001000000111101000100010100011000101110111111
00001111101110111111000000001011100001011111100001000100001100000000000000011111001011110000010000001101111010111100010000001
00010000100001000001000000010111111000011111111110000010000000001111110001100001001000000011111000010001000010000010000100011
11110111101111100000000000000111111111110000000000000100001100100000001111111110111001111000010000001110011110111100001000111
00011000101111111001111011111100011000010000000000111101111000001000110010111111110111111000011000100000100101001001111111101
11101000000000000010111100010011111000100100011111000110001000001111011111101000001010010000000110010000100001000101110011001
00010000010001000000000010011000001000010000111011001010000111101111111110000010000011110100001000011101100000000100010000100
00001000010000000001000010000100011001110010100100000000011000000111111111100010000011111111101111101110000000000100001100000
11111000110000111100111001111000000000010000111100111011110100001001000000100000111110010100011001000010000001000011110011101
00001000100000100011001000010000010000000001111111000011110100011001000000111110111110010011111001011110111100111110000000110
00000111001110100000001010000111111111110000000011000011111111101111011111111111000001111111110111110001000010110101101011101
11111111101111100011000100000000001000101111100000111100000100000111011100110110000010010011100101111110000000000111111000010
11101111100010000011000010001100011111110001100000000000000011111000001110011010111111111111100111011111100011111111110000001
00011000001111011111000000000111101111010010000000111110001111110000101110100001000111111100010000010000100010111110000000000
00101001110001011101000100001000100000001111100001111001111011101000111111011111001000000000001001000001100111000110000100001
11111000010000011100000010011000100001011101100011111111110100000111100000011101000011111100011111101111111111001100011000010
00101000001111111110111001111011111111111111000100110001111100001000000001111001110111110100111001110000000010000000110001011
11101000010001000000000101101100100001001110111110110111111000001001000000000000001100100000001111111111100010111011110111100
00001000100000011110000000000011111000110000011111000100000000000111111111100100000111111111111000000001100000000000000000000
00000000101111100000000010000011110000001111100000111011111100000111110000100000111111111011111111110001100001000110000100011
11101001000000000001111000001000011111111111111101111100001111110000100000011111111100000100010000011111100001000101110111111
11110111110011000010000011110100100000111111111111111100001011100111001111011100111001111111110111101111111110111011110011000
00001000001111111111111001111011110111101111111100111010010000010000001111011011111100000000100000101110000000111111101111000
00010000100001100001000001110100001000000000100011110110001011111000110000011110111000001000100111011111100000000001111100000
11110000000000100010000011110111111000010000111100111110000100010111100001111100001001111000010000011111000001111110001000010
00001000011111100010000101111111111000000000000001111010000000001000011110111101111010001100001111101111111110111100001000010
00011000010000111110111010001100000000001111000001000100000000001000000001000010000001111100000000000001000000111111110100000
11110000101111111110111110000100000111101110111111111101111000010000010000000000111100001011111111100011100100000111111111110
11111000100000000010111101111100001111110000100000000001111000000000010000000000111110000100000111100001000011111110001000000
11111000100000100001000001111011110111110001000000111111111100000001010000011101000000001100001000100000000010000010001000001
00001001010000100000000000001000010000000000000000000001111111101000101110100011111010000011100000011111100100000011111100011
00100000100001000010000100001111111111110000100001111011111011110111100000011111111110000011100111111111000000000011111100001
11100000011111011111111101110111100111111111100001110110000011101111111111111000111111111111110111001111000000111110000011110
11110000100010000001000010000111110000010000011110111100010011111000011111011111000101111100010000100000000001001100001000100
00001000000000011110000010001000000000001111100100111110000000000111010000011111000100001000001000000000011110111111110111110
11110111111111011111000001111111111111111111000000111111111100001000000000011101111110000011111000010000100010000100000100001
11111111101111011100000001111111101000101111011110111110000111111111111111011111111100000000000111101111100010111011111100000
00100001010000000001000010000000000000000001111100111111111000001111011111000000000100001000001111110000000011000100000011011
00110001000000000010001010010100001000100001000010001000001100000111110001000100000001110000011000010000100011001001111011110
00001000100001000010000100000100011000010000011110111100000011110111111110111101111111111100010000001110100000000100001100010
00100110111100111100111000000111110111101110011111000101111100001110011110011111000011111011011111101111100001111010001011011
00001000000000011110000010010111111111111110000000000110001100011111100001111110111110000011110000010000000001000011111100010
00001000100000111111000001111100010000010000000001000010000000001000100000100010000010000100011000000001000010000100000111111
11010111111101111100111111111111110000001100111111000001111000011111100000100000111100001100000000010000011111000110001000100
11100110111110011111111011111100010111110001100000000010000111101000000001011110111100000011111000011111111110000000000100010
00000111111111100000111001111100000111111111111111111110000100001000011111100000111111110011111111110000000000000010000000000
11101000101111011011000000000000010000011111111110111010000111101000001111111111111111111100000111110000000001000101111100000
11111111100010000010000001111111110111011111100001111011110100100001000000111111000000001000010000011111100000000110001000011
00001000110000100000000000010000001111100000111111000101110111110000000001111110000100001000001000010001100010000000000011111
11110110010000011001000100000111100000101110011110111000000100010111110000000001111101111100001111110000011101000101111111110
00000000100011000000111011111000011000110001011110000011110100011000011111000011111010000100000111110000100100000110001000001
00010000110000100001000000000000001001010000000010000001111111110111100000011110111010000111110111011111000001111101110111101
00101001100110001011001110001100100001110010100100000100001000010111111111000001000100001011111001000000000010000010000111111
11111110011110100010000110001111111000001111011111000110000111111000010000111101000001110111111111000000100011110101100011100
10101110011011011110111001101100010001100000011111111011111000001001001111000001111111111111101000001111100000000001111100010
00000001110010100001111000000100011000110001100011000000001100001000110001100000000010000111110000001111111100000000001111011
00001001000011101101010000001000100001000000100001000110001111110000001111011110000100000100010111100000000010000100010011111
10011101011110111101111011011011101111101101000100000101110011111000010001000011000000000000010000011110000000001010000011011
00010000011111111001110000001111111111111111000000000000001000100000000001000001000010000100000000000001100011000001111100000
11101111001010111110111011100011110111011110011110000111111111101000010001100000111110001100001000001110000001111101111011101
01001000110001011110110100010100001101111110011011000011110100000111001111100011111100010000000000010001000011001000001100100
11110111110000000010000110000100000001000000011101110110001011111000100000011111111010000000000001000000100000111010001011111
00100111000001000010000010000011110111010000000000111000010000001111110000000010000101111111101000010000100011000010000011100
11111000110011101010000000011000010000010001011101001000000100001111010000000000110100000011100111110011011111111110000100100
11000111111111011011000011111100011000100000100000000000011111111000111111000001000000000111101000001110111111000100000000101
00110000010000100010000100001100100000010000000001000111111000100111011111000000001011111111110000011110000000000010010100000
11111111110001000000111110001100000000011111100000000011111100011000000000000000000011111111110000001111100000000010000000000
00000111110000011111000010000000000000001111111111111111111000000000000000111111111110000100000000001111100000000000000000001
00000000000000100010000011111100001000000000000001000000000111110000010000111110000000000011110111101111111111000010000011110
11110000001111111101111010000111111000100000011101000011111000000111011111100001000010000011110000000001011111000000001000000
11100001000010100001000101111111111000011101111001000110000100010000010001000100000010001000001000010001100001111110001000001
00001000011111111101111110001100001000100000011111000001111100001000011111111110111110000000000000001111100001000100010011110
00001111000000100000111111110100010000001110100011111111111111111111011111100000111100000011111111110001011111000011111000000
11111111111111011111111111111011111111101110011111000100001100011111111111111111000000001000001000111111111111111110000100011
00001111111111011111111100000011101111010000100000111101111111111000010001011111000000000100001000010000100010000010000000000
00001111110000111111000000010011110000011111011011001010000111111000010000100010111110001000000000100001000010000010000011111
00001000110000011110111100001100100111110000000001000010001100000000000000011110000010000000010111101111111111000100001111111
00001000010001011110000010000100001000001110100000000101111011111000010000000011000000000000000000000001000010111111111000001
00011111101111111100000000000011101111001110111101111011101111110000101111011110111111111111110111111111000000001001110111111
11111000001111000001111110010000010111100000000011000100001011111111110000000001000000000000000111000000100010001000000111111
00010000010000011110111100010000001111111111111111001000001000001000000000100001000110001000000111110000100010111101110111111
00000111111111000000001001111000000111101111100010111111111111111000000000100010111111111111110000011111111111111101111100001
00000111011111000000000101111011111000011111000000110110010000001000000001011010000010010100101000001110011111111010000100001
00101001010001100100000000010100000000010000100000001000001000011000110001000011000100001000101111111011110111111100000100100
00110001011111111100111010001011111111011110111101001101111011111111111111000000111010001011111110111111011100000100001011111
00010111110000000010000001110100010111010011011111111011111011110000110001100000000010010000000000101101010111110110000100001
11100000110000000000001001101000010000010010000010111111110100000000110011111110001000000000100000011100000001001100001100110
00000111111111100001000010000111110111110001000001000011110011101111101111011110111011110011011000011101011100000100000000010
01100010000010000001111010101100111111111110111011001001111100001000111110100100001011111100000111100011000001110011110011101
11010111001111000001001101111000011000010001000001111011110011101000110000111011000001111011110111101110000010111101110111100
11110110111110011100001001110111010111010000100100110111111111110000100000111100111111111100100000101111111101000110011101001
11101110001111000000000101110111110111011111100111000101110100100000010010111110111010100000010000100001110111111010000100011
00000000001101010111111010000100001001011111111111001000000100011000000000011110111101111000000000110000100000000001101100001
00001111111111100011111011110100001001001101100000111000010000001110111110011101000111111100000000000001100110111011101000010
11111111110000100000111110000111110000011110000000000011111011100000100000100011000111111011111110110010111101110011101111110
00000111111110111111000001111100011001000011011110001000100000011000010000000110000010000100000001100001000011000100000000010
00000000010001000010000110011001000001000000011110000010001100010000100000000000000000000100001110100000011111111101111011001
00100111101101011110000111111000011111101111100011001100010000001000010011001010000000001000010001001110011100111010000100010
11110111101111100001111101111111111000000000100000111100001011111111110000000010000100000000000111100000000000111110000111111
11110000001111100000000000000000000111110000011111111011111000000000011111011110000101111100010000001111011111111100000011101
00010000001111100001000010000011111000000000000001000000000000000000000000000001000100001011111111010001000000000000000111110
00110000000000000110000111111011111000100000100001111110000011110000110001011011111010001111111000111111111110111100001000101
11011111110000111111111110000100011111110010000010111010001000010000010000100001111010000000010000101111000001000100010000001
00011001000010000100000011111000000000011111100001111100001000010000001111000000000010000100000000100001100001000001110111111
00000111010001100011001011110111110111110001000011000001111100001000011111000010111111111011100111110000111101111111110100010
11111111101110111101111011110111111000000001100011000000001000011000101111111011110100000000000110101111011111000010001100001
00001000100000000000111110000100000000000000011111000000000011111000010000000000000000000011111000010000000000000100000000011
11111111011111000011111111111100001111110000100010111011111000100000000001011011111111111000000000100000111110111001110000000
00000111010001000100001011111011101000000000000010111010000100011000111111111101111101110111101000110001111110111101111011111
11110000010001100010111111110100000000100000000010111110000100010111110000100001000000000000000000100000000010000010001100001
11111111100000000010111111111000000111010001100100000011110011111000001111000000000100000000011000010000000000000001110011111
00010000100001100001001010000011111000010001000001001001111100001111111111100010000011111111101111101111000000000101111000000
00100000101111111111000011110111111111100010000010111101111011110111001111100011000000000100000111000001000000000100001100000
11110000100000100011000010001100000000010000000001001001111111101111001110000001000111111111101000011110011110000011111000001
11011001100000011011111110001000100000000001000001001101111111011000011111000110000100000011001111100010000010111111110000001
11101000010001111100000011111011111000011110000000111001110111101111010000111111111101111011111000000011011110000011110000011
11101000010001100110001010001100000000010001000000111110010000100000110010000000000100001100011000010000000100001011110111101
11100111000001111101001010000100100111101110111101001000010111111111011101000001111101111000000000001111100010000000001011100
00010000010011000010111110011000010111011101011110111110000000000111000001000000000001110000001001111111100000111110000011101
00011001000010100001111100001000001001010001011111001100001000101001000000000000111110011000100111100000000011110110000111010
11101110111110111011111111111000110000001111011111001000011011111000110001011111000010001000101000101110100000001110001100010
11111000001111100100001000000000100001000010100111111110000100100001010001000011000100010100010111010000000001111110001100010
00101001000010000010111010010100010110110000100001000110001011101111111111000100000000000100000000000010000000111101110100000
00110001010010011101111100010000010001010001100100111100001100000000000010111110111110000000000111001111111110000000000011001
00100000001111011000111001111011011111110000111100111111111111111000100001100001000010001100001000101111111111111010010011011
00101000100000111101000000001000000111011111011110001001111100001000110001000101111110001100100111100001111110000010001111110
11111111101111100001000001101111111000100000111110111011111100000111000001111100110010001100010111011110111101000000001000010
00100001010000100011000011110000001111101110100001110001111100010110100000000000000001110100000111101111011111110001100111001
11110000100001000010001111111011101111010011100110110101111000010001000001111101000000000100011111001110111110111111101111111
11111001100010011110111110010000010000010001100000000111111000010001001111100000111111110111111000000010100000111111111000000
00101001100000100001111100001100101000100001111101000001111100000111100000100000111010001011110000000010111111111111111000001
00011111011110100000111110000000010000010000100000111110000000011111101111111110111100000011111111111111100011000100010011111
00000111101110111111000101101100010000000001100100111100000100001111110001100100111001111100000001110001111111000011111000001
00110000010001111110111010011100100001011101111111000100001100000111111111111111111011111000010111111110000001001100010100001
00110000001111011101111111111011100111011101011010000001110000001111011111111110000100000000010000110010001000010010001000010
00111000010000000011000110010100101000110001000010000110000000001111110000000000000001111100000111000001100001000111111011110
11010110111111000000111101111111100000000001000011000001110000000000000011000101000101110000010000010010111011111111111111101
00101111110000111101100101111100010111011110111100000010001100011001001111111110000010010000001000010000100010000011101000011
11111111110000000011000001101100010111100000100000111001111011111000010001111110000011111100000000001111011101111100001000000
11111001110001100100000010010000001110110010100010111110001011010000100000100100001011101111101111110001000001000010000000001
00001000000001001100001011111011111111000000100001111110000000010000101110111101000000000000000111010001100001111001111011100
11111000011101100100000110000000001110110001000011000101111011110000000001000010000101111111011111111110100000001101110011101
00000000111110111100111101100111011111100010100001000111101100011111100000100000000000001000001001110000111000000000000111110
00000001010000011111000100000000101000011111100001111101111011111110101111011111111110011011101000010010101001001001110111101
11100111110010100001111001110011010111110001000100111000000000101000110001011111000000001011110000110101000101111110000100011
11100000000000100010000101111100001000011110000010111110000100001000101111111111000111110000001000000010011000100011011011101
00001000100001000000000011111111110000011110111110000111111011101000000000000001111101111000000000100010100001000011111011111
00000000110000111111000001111111111000110000111110000101111111111000000000000000000000000011111000000001000001001001101111110
11111000010001100011000010001011111111101110111111000101111100001000101111011110000000000000001111111111100000000010001000011
11101000101111011010111011111000000111011100111101111110000011101110011101000011111011111111101111001111100001000110000100001
00010010010001111110110100010000010110111110011111000100010000011111011111100010000010001100001111110010100010111100001000110
11101111111110111100110111111111101000100000100000000101110011111000110001000010000001111100010000100001000100111110001011111
00000000010010000000000010010000001111101100111011000100001011111111101110000001000001110100000111011111011000000010000111111
00001001000001101001011000010100010000011111100011000001101100100000000000100101111110000100111000010001000011000100001111110
11111111101111111101111010000100000000010000100001000010001100010000100001000001000000000000000000010000111110000000000011110
11111000110000111100000100000100010000011110100000000010000011111111101111000011111010001100001000111110011100111110000100000
00010001000000111000110100010000011000010000100000000100001011101111110000000110000010001000011000101111000100000100010000010
00010111100001000000000000001000010000000000111110000011111000000000010000000001111011111111100111001111011110000010001000001
11110111111111100001001101111100000111001101011101000100001011110000010001111111111111101011110111011100011011000101110011100
11110000001111011011111101111011111111110001100111111010000100000000100010111111000010001100010111100000111111000100010000000
00000000101110111100111110000111111111100001000010000100001100000000010001000110000100000000110000110000000010001000001011111
00000000100000000001000111111000000111011111100000111101101111101111110010111101110111111111110111110000000001000111111111111
00101000011110011101000010001000000000011110100011000110001011101111110000100001000110000000011000010010000010000101111111110
00000000100000111111000000001011111111101111011111000101111011111111111111100100000110001000001111111111111101001100001100000
11111111100000111111111011111100000000011111111011000100001111111001011111000010000010000100010000110000111110000100001000001
11111111010001000011000010000100000000101110011110000010000000101111001111111110000000000000000110111101100011001001111111010
11011000010001100111001001111111111110111111111011111101101011101111001111111110110111110011101000010001100001000110000111111
00101000101111011110111010001111101000111111011110000010001011111111111110011111111010000000000000010000100010000000001111111
11100001010010000000111010000000010000111111011100111100001100100000000000011110001010001100000111010000100001111000011000110
11001000000000000001000111111111110000101110000000110111011011001110111110111111111101101011110110100000111111111101110011011
00001111111111000000000000000011111000110000100000111101110000011000100000111111110100000100011001000000011111000100011001000
11100000000001100001000101110111111000100000000101111100001000010000010001100001000110010100010000100001100010000100000100001
00010001000000000000111110000100011000100010000001000110001000000000110000100011000110000100101001000001100000001000001111111
00010000110001100101000001111100000000110001111101111101111100000000001101111110000101111111101111110001111111001000001000000
00000000110001100100000111111000000000000001100001000100000011110001100000011111000101111100001111010000011010000000000111101
00001000010001111100111011111100011000000000011111111101110100000110111111100001111110001100000000001101011110001001110000001
00000111110000000000111111110111011111001111111011000011100111010111011111100000110011100011000110010000111011111101110011100
11101000100000011111000001111000010111100000100000000101111011110001100001000001000010010100010001010001100000110111101100100
11110000010000000110000001110111101111110000100000111111111100011001010010000000111111111100010001011110100000000010000000010
00000000100001100000000000000000001000000000100010000100001000001001100001100011000110001100000000100000011101111110000111111
11011111001110000011000010000111011000010001100101000001110100000000010011011111000100000100100000110000011111111110010000100
00010000011111111110111100000011111111100001000010000001111000000000100011100111111111111111110001000001100011111101101011001
00101000010001000011111100001100000001001111100000001010001100110000011110100101000000000011101111010001011001110111101111101
00000111001110111111000011101011101111001110111101110111111011111000010001111100000101111100001000011110011101111001011111111
11110111011101011101000010000011110000100011100110110110000000000001110011100000111101111100011000110000000011000101111000010
00011001101111011011110010000000001111001111011011000000010011011111111111100100000111111000001010000010000011000010000000000
00001111110000000010111110001100000111100000011101001000000100000000001110100001001000001011111000000001100111001100000000001
00001111110000000110001100010000101000010010111100001001111100010000111101111111000010000100101111100000011110000010010100010
11101111010001001000001000000000001001000001000000111101111000010000101110011111000110001000011111111101011110001100010100010
00001000010001000000000001111100000111011111100010111111110100001000001110100001111100000100010001001111100000000010000100011
00000110011110000000111100001111111000000000011110001110010011110000001111011100000000000100001000110010100110111000010011100
11100111011111000001000010001111111000101111111110111110001100000000010000000010000011101111100110111110111010110101111000000
00110000111111111101111000011000011000000000011010001010011100000111001111100101000010000011110001001110111101110101111000100
00000111111111100001000100001100000111110010000110000010001111110000010001111100111000011011111000110010000011010000011000001
00001000100000011110000000000000000111110000000000000000000000000000000000011111111100000011111111110000111111000010000000000
11110111111111100000111111111100000000000000011110111111111100000111101111011111000000001000001000001111011110111110001000010
11111000001111100001111110000000001111110000000000000000001000000000000000000001000000000100001000000000111110000110000000000
00000111101111111110000001110111110111101110100000111111111100000000001110111110000100000011111000010000111110000000001000001
00010111101110100001000101111011100111011111111111000011111111110111010000000001111111110111110111101111000000111100000000010
11110000001111111110111111111100001000011111011111000010001011111111100000000010000010000000000111110000100000000100010100100
00011000101111011110000010010111111000000000000000000111110100010111111111000001000010000111110000011111100001000001111100010
00001000001111011111111100000100001111110000000000000001111100000111111111111110111101111111110111111111100000000100001000000
11110000010000100000000001111100001000000000000000000010000011111000000000000000111111111111111000000000100001111011111011110
11111000000000100001000010000100011000100000000010111110000100001000100000011111111111111100010111110000111100111011110100000
11110111100000100000000101111100001000100000000000000100001100100111110000100001000010010000001000010000011111111100000011111
00001000000001000010000010000000001000010000100001000010000011111111110000000010000101111000001000000000000000111110001000100
11101000010001000000000001111100001001001111100000111110001011111000100001000000000001111100011111110001011111000010001000010
11111111111111000001000011111000001000010000000010000000000111111111111111100001000010000100001000010000100000000110001000000
11111111100000000001000000000011111111111111100001111111111011110111111111000001000001111011110111110000100100000100000011111
00011111110000011111000100001111110000010000000000000011111100001111101111111111000000001000000111110000100001000010000100001
11110111010000000000111111111111111111011111000100111110000011111000010000000000000001111000001000000000000011000010000011001
11100111011111111111000101110100001111110001100011000001111011100000010001100000000000000000000000100000000000000000010011100
11101110101110111111001001100111100111010001000010111111111111111111101110011110000001111110101110101111111011110111111000000
11100111101111000001000101111100001001000010100110010000010000010000100001000000000101110100001000101110100011000100011000110
00011111111111011111000100001011111000111100100010000110001000000111100010100001000010010000000000100100100010001010010100000
11011111110001011110000101111111111000010001100000111111110000000000010000100000111111111111100001101111100011001000010100001
11011111001110000011001011011111011111010010100111111011111000001110101100100000111001111110111111101111011011111100000011110
00011000100010100011000000001011101000110011000110000110001000100000010110000011001000010100001111010000011101111101111011001
00010001000010000011000011111011110000100000111100111011110100010111100001111101111010000000010000111011111010111100011000010
11110001101111111111000010010000100111111110111011111100001111100111010000000101001010100000001010010001000011001000000100011
00000001001111100000110010001111111111111111111100000010001100010110110000000001001111111000001000011111100001000010001100011
00010000011111011011111010001100010111101111111011000101111011101110111111100000000001111011101110100000100001001111111011111
11101111010000111110111010001000000110001111111101000011101111111001011110000000111111111000010110100000111101001011111100010
11111000100000100000111101111000010111001111000010111101110111110001100001011101000010010000111000000001000001001010010100010
00010111101111000010111110001011101000010001100111001101111100110001010010100010111100001011111000110001100011000001101011100
11111000110000000010111100000000110110111110100011110110010011110000010000100001111111100100000000101110111010000100000111101
