11101111101111011101110111110100001000101101111001111011110011110111101100111111000001111111101110110010100000110111110100010
11111000010010100110001011111011100000100000011110111001110100011000110001011101000001111000000000110000000011111111111100010
00010000011111100010111110010000000111010000000000111001100111111111101111111011110101111000110000001100010111111011111100000
00001001000100100101000001111100000000111011110110111111111111111110101011000001111111110111110111100001100001111110011100010
11011111000000100101001111101100100001000011101000000000001100010010011110000110010010000111111110000011000100111011101100000
00001111010000000010000111111100011110111111000000000111111100000110010001000001110111100100011001110000000000000101110000011
01111000110000000000111010001000010111001111000010111001101100000000100000011101111110000000100000110000011110111110010100001
10110101110000100010000111110011110000100010100001111011111000100000100010000011000000010100000000010010000010000110000100001
11100000000001011111000011111000011000010000011110000100001100011000100001100011111010011100001110110000011100111011110111100
11110000110000000001001011101111111111011110001010111110001111110000100000100100111111111111101110011111000001000101110011001
00001000110000011110000000001000100001000001101001001000010011000000100100000011111100001000101000010000011101111111110010110
00011000111110111101111010010011111000011111000000000010001100001000101111000001001000001000001000111111100000000011110011010
00101000101110111100101100000111110111111101011000000100010000100000101111111101001011111011101000101110100001111100001100101
00010111101111000000000110001011110001111101100010000110001100100001010001000101111010001100000000000000111100110011100111010
11100111100001100011001001101011111111110011000101000011110111110001110001110110110110010000101000101101100000111111110111011
00010001000001100000111001110111110000011101111000000001111000000111011110111101001100000011110111010001100000000111111100010
11101000111111100000000000000000000111011111111110111111111011111000101110111101000000001000000111111111000000111001110000011
00000000111111000110000111111111100111001110111110000001111100001111111111100000111111111000011111110000100000000000000100001
00000000001110011111000010000000000000000001100010111111111000001000101111100000111011111100000000111101110111111110001100101
01000000110000111111111100001100010110111111111110111001111100111000010001011111010000010000010001011111011101000010100000101
00001000001111111111000100000011110001100000111010111110011011111111001110100000111101110011110111010001100010111101111000100
00010111111110111110001110001011110111110000100100000001101100000000011111100000000010000111111000110000111110110110000000100
00001111101111000000111010001000000001000010011111000000010100011000000010100010110110000011111001001101111110000110011001010
11110111001111011111111101101000000001100010011110110101110111111111111111011010000000010000011001010000100110001001111100001
00001000011111111111111000001000000111111111100001000001110111111111011111000000000000000100001111010001000000111010001000000
11110111110000000100001001111000000000011111100000000001111100011111111110000000000110010000011111110001100110111011110011010
00011111110000000001001001110111111111011111111110111010001011110111101101000011111111110111011000000001011101111001111100001
11111111001101011011111001111011110111000010011111000101111100000000001111100011111111111111111111100010011111111011111111110
11110000001110011010111011111000001111011111000011000011101100011000101111111111111000100000100111100000011111000100011001000
00011000100011000100111100000100100111000001011110111101111111111110101101100000111000000000011000000000111110111110000100100
11111111010001000011001010001011101000010010011111000001110000000111001111111011111111111111101110110011000100000000001000000
00001001001111011010110110000000010111000010111111000000000000000000110001000001111110010111100000100000011111111011111000001
00011000010000100010000100000111111000000010000001000111111100001000000000111110111110000111111001010000000001000100001000010
00111000101111011110111000000000010111101110011110111110000000100000110001000000000001111111111000010000000000111111111011110
11101111110010000101000010001000011111101101111111001010001100001111101111000000000000000100011111111110111001111110001000011
11001111000001000001000011100100000001000010101000111111110100001000100001111111010000001011111001001111000010000000000011101
00100001000001000000110110000100001111010000100010111001111111101000010010111011000010000100001001100000100000000100000100010
00000000110001000000111001111011101111110000100010111111111100000001100000000100001010011100011000010000100001000000000100001
11101111000000100001001000010000011001011111100000000010010000001111011110111100000010000100000111101110011100000010001111111
00110000001111111100111010010111111001001111111110000010010000011111010000111111000110000000010001000010000011000010001000001
11101110101101000010000101111111110111110000011111111111110111101111110000100011000001111111111000010010100000111011110000000
00010111100001100000111001011111100001000000110110110011110100000000011111000000111110001000001000000001000011111111111011111
00001111001111100011111111110111100111111111111010111000000011111000000000000000000111111100011000110000100011001001111011101
00000000001111100010000010000100010111110001100001111010001011110000111111100000001001110111101000010000011111111100000000011
00001000010001100111000110010000001000000010011111111100001111101111101110000001111110000000100000100001011101000100011100101
00010001100011011111111111111000011111110000111101000001111000000111011111100011110110010100100001100000111100000000000111111
01011011000000000010000000011100111111011101111001000110000000001111111100000100111101111111111111101110011110111110000000101
11100111011110100010111111111100001010000011000000000000010000001111101101111110111010010000100110110001000000000100000111101
00000000000000000000000110000011111111110001100100111111111100000000000001011111000000001111111000000000011110000000001000001
00011000010001100001000111111111111111101111100000000011111100000111111110100000111110000011110000000000100000111110001000000
11111111010001000001111110000100010000011111011111000000001011110000111111011101111111111100011000101110000001000000010011101
11000111001110111110111111111011110111111110011100111101110011100000101111011111111110001100100111010000100010001101111111110
11000110111111100000111000001000100000001111011011111100000000010001001110111100111111111011110111101110011111111110000000001
00000111110000000000111111110100100000101110011110000000001111111000101101100011000010000000001111010000000001000110001000010
00010000101111100001111100000100010111100010011100000111111000010000011111111100000010000111111111010000100010000010000011110
00010000101111011110111111111000001000111110111101111010000100001000001110100001000000000011111111110001000010111110000100001
00000111011111100000000100000000000111110000000010000100000000001000000001000001111100000000000000111110111110000010000100011
11110111110001100100001111111011111000101111000000000000000100010111101111011111111011111000000000011111111110111110001011110
00000000101111100011000101111000000000011111100000000000000100000111100000000000000011111100001111111111000010000000001011111
00001000100000100010000000001000001000110000011101000000010100000111111111100000000101111111110111100000000001000010001011111
00011111110000100100111110000111100000001110100011111010001011101111110000000000000000000000010000100000000000000010010100001
00001111110000100000111101111111100000001111111111000001111011110111101110100001000011111111111000110001000010000100001000100
11110000001111100000111101110011110111111111111000111111111111101000001101100001111111111111100111011111011111111100000111100
00100000100011000001000000001000010111110001011111111100000111111001001111011110000000000111110000010000100001001000001011110
11110111011111111110000000000000001000100001011111000001110100000000001111100100111110000000000000100000111110000000000000001
00001000010001000010000010000111111000001111111101000000000000001111111111100000111101111111111111110000011111111101111111110
00000111111110100010111111111000000000001111011111111101111111111000011111111110111100001011101111110000011100111101111011111
11011000000001000011000001111100001000100001000000111101110100001111101111111100000110000000000000000000100001000000010100100
11110111100010000011000010000100011111000000000100000101111100000000110010000010000100001000001001010010100010000000010000110
00010000110001000000111010000000010111111111111101111011111111110000001111011110000000000100011000010001000010000100001000001
11011000101110100001111111111011011111100000111111111001100100001111110001011111111001111011110000011110011100110011101100100
00010111110000100001000000000111110000001111111110000111111000011000110001100000111001111111111001010000111110000000000000001
11111000010001000010000100000000011000010000100010000010001000001000000000100001000000000100010111110000011111000010001000001
00100000100001111111000000000100000000111111000000000011111000011111100000011111110010000011110111111111111100110111111111010
00010000010000011110111110000111111000001111011110000100000011101000010000100000000111111100010111111110111111111001101111100
00000000000000100000000001111111111111001111100000111110000100001000011111111111111111111100000111111110000000111111111100000
00000111110001000001000001111100000111111111111111111110000011101000011110111110111110000100010000000000011011111100001011101
00011000100001100000111110000100010000100000011111000010010000100111011110100001111111110111110111110000000010001001111011111
11111000000000000010000110000100001000100001011110000110000011110111010001011111000011111000001001000000000000000010001100001
11110111110001011101000001111100001111111111000001000001111100010000011110011110111000001011100000010001011001000001100111110
00001000100001100100000011111100000000011110100011111100000100011111010000111110000100001100011111101110100000001100001000000
11101111011111000001111101110111110000011110111110000001111011110111110000000010000000010100001000000000000001000010001100010
11111000010000100010000000010011111000100001000001111101111100010000100001000100001010011100100000110011101011011000011000101
11100110001101000011000011110011111111010000011101000010000111111000010001111111111100000011111000110001100010111011100111111
00010111110000000000111110000011101111111111100001111100010000001111101110111111000000011000010110111110011110101101100110101
11011000110000011100111110000011110000010000100000000110001100001000110000000011000110001100011000011110000001001010011100000
11111001000001000010000001111000010000010001011110111100000011110000110001100001000010010000100000100100001101001110010000001
11011000000010100000111000000100010000000000000011000100000111111111000001000100110101111011101101101110111101111011010110011
00000111110000000011000110000000000000010000100001000100000000100000100000000000111101111111111000111100011001111110000100010
11101111101111000001111000000000001000111111100000000110000111101111110001111110111001110111110110001110111110101011110011101
00100000110010000011000100000100000001001111000011111111110000000111010000111011111001011100001001011101011110000100001101001
11111000101110100000000010010000000000001110111111000000001011111000101101111101000000010000000000010001100010000001111111110
11100000000000100011000010000111101111110001000010000001111100001001001110000000000001110111110000000000100010000101110000100
00100000011111111111001101111111100000001101000000000001110100001000010010011101000100000100010001100000001010001110001111111
00101000000001011111111010000011101000010000000001111100001111111001110000000000000010001000011111110000111011111101111111000
00000001010000100000111000000111110111110010100000111101110100100111100001100001000000000100100000110001000010000010000100110
00000000000000100000111110000011110111110000100000000000000000011111110000100000111110000100000000111111100000000101111111111
00001000000000000000111110000000000000011111111111000010000000000111101111111111111110000000000000000000111111000001111100000
11110000000000111111111111111011110000000000011110000010000111110000010000000001000000000000001111110000100010000010000000000
00000000100000011111000100000011110000000000100001111111110100000111100000111101000000001011111000011110111101111110000011110
00001000101111100001000110000100001000100000100100000100000100010000010001111001110110000111111111110001000001001010010011100
11110001000001000001111110000000000000001111111110111110000100001111110000011111000000001000001000111111111101111110000100001
00000111100000111111000101111111111000001111000000111111110111111111111111100011111010000000010111011111100000000011110000001
00011000011111111111111110001100001000100000011111111111111100011000110001011111111001111011111111101111111111111101111111111
00000000000000100010000010000100001000010000011111000100000111111111111111000000000011110111101000001111011111111101111100001
11111000000000100010000100001000000000101111100010000010000111111000010010111011111100000111110001000000011111000011111100001
11111000110001011111111111111000010000000000111110000000000000000000110000100001000001111100100000111111011110000000001100001
00001111101111100010000100000000000000000000000011000000000111111111100001000000111010000000001000010000111110000100000100001
11111111010010000000111101111111110111111111111110111100001011110110111110111101111011110011101000000000011100111111111000011
11111000010010000010000011110000000000000000000001000001111111111000100001000011000001111000010001001111100001111100000011111
11111111011111000010000011111100000000100001100001000010000000001000100010011111111111111100001001001111011110000000000100010
00001111111111011111111110000111110111111111100010000010000011111111111111100010111111111000000111100010000000111101111100000
00001000011110111111111000000000101001010000111010000100000000001001001101100000111100000111111111100001000000111101110100000
00100000011111010111101111111100101000100001000011000100001100011000100010000000000010000100000001010000000100000110010100101
11111000100001011100111101101111111000101110100000111101111111111111100011011101111011110111111000101110111100111110010100110
00001000011101110111110100001000000001000000100000000110001111110111101110111111001101110100010111010000000010000001111100010
00110000110011000001110000000100100000000010011110001110001100000111011111100010001000000100010110100010000000000000001111100
00010000000001011100110100000111011111001110111110111101111011101111000000100001000101111111110000010000100001111111111100000
11101111001100100001001101111000000111110010100100111010001100001111110010011011111011111100111010111110100001001000100001100
11100111011111000010111001111011110111100000011011000010001111101111001110100001000100000100011111100011000001111101110011010
01001001110001111101111110001000100111111111111100000010001011110111111101100100000011110111010111010010011100111001101111110
00011000011110110111000110001000010010001110111110001010000100100111010001000111111111110111110111010001000000111101100011101
00001110110000000000000010001100000111101111011110000000000000011000010010011111111110010100001000011110110111110100000000000
00010110101110100110000110000000000111110001111101111001101100001001001110000000110110010000001111011110100011111111111100001
11110110111100111101001011101111111111100001100011000010001011100111100000100000111000000111110000011111100000000011111111111
00010000000001000011000100011000000000010000100110000000000100011010000010011110001100010000011111110000011111111011111100000
11001111101111011111000001101000001000010000000000000000001000010000110000111110000000010001000001100001100010000100000100000
00010000011110111100111000010000010000100000001010001100000100001001000011000011111111111000011111100001111110110101111000100
11111000011111100000000001111000000000000001000010000001111111111000101111000000000010000011111111111111000001111111111011110
11101000001111011111111100000000010111110001011110111100000100000111101110111111000001111100000000000000000000111110000011110
11110000010000000000000101110111111000100001000001000000000000000000000000000001000000000011111000000000100001111110000000010
00101000101111011110111110001111111000111110111011000100001111110000001111100001000010001011111111100001100110000000000000110
00001001000001000001111100001000010000001110100001000010000100010000101110100010001001111100011000011111111111000011111111011
11111111010000000001000110001000000000010000100000111100000000010000101111000001111110000100000111100000100100001000010000011
00010111011111111101000011111111100111101111100010111100000100001111110000000011000101111111110111010010100011000111110100000
00001000110000111111111101101000000000001101011011111110001000011000100000000011000110000011111111011110111101111011111011111
00011000000001000000000000000111111000000000000000000000000111111000000000011111000000000000000000011111100000000000001000001
00000111001110011110000010001000000111101111111011000100000000100111101110100010000011111100001111111111100011111101110111111
11111111101111011110000110001111101111011111011101111110001100011000011110100010000000000011101111100010100100000101110100000
00001000110000100010000000001000000000000000000001000011111100010000011111100010000000001000000111011111100010000110000111110
11111111000000000000000000000100011000000001000000111100000011111111000000100100000111110100000111101111100010000001111011111
00000111100001000000111101111011101111110000100010111111111100001111110010000001000100000111111000000010100001000110001000010
00000000110001000000000101110000000000010000000011111111110011110111101111000010001001111011111111010000111111111110001000100
00001111100000111110111000000111101111110001100001111001110011101111110010000001000000000100000000110000100011000010001011110
00001111001111100010001001111011001000000001000110111100000111011111110011000001000100000000100000101111111011000000011011011
00011111000000111110001100000011111111101111011111000011110111101111011110000000111000000111111111100000111100000110000111101
11101111010010100100000000000100011000110001000000001000001100100001001111100000000100000100000000110010100110000110000111101
11100000100000000010111110000000000111101111000001110101110111111001010010011101111011111000100000010010111101000111110011100
11101000001111100000111110011100001111000000000000000101110000000000001111111110110101110100010001101111100010001100000100010
11010000011101100011000001111000100001101111100000000000010000101000100011011111000100010100001000101111000001001010010000011
00010000110011100000111010001000101000100000111111000100001111111001100010011111111100000000110111101111111011111011101111101
00010000111111100001000001110100010001010001000011000100010100100000011111100111001010010000100000000010000100111110000011111
00000111011111000000001000000000000000010000000100111101111111101000100001100001000011101100010001011110100010001000010000101
11001000000000011110111111110000000000001111111110001010000000000000111111000100000110010100010001001111011101001000010100110
11011001001110111111111110001000001000110000100001000110001011111111111111111100000011111111011111101110011000111100000000100
11110000110000111110000111111000100000111111100101000100001100001111110010011110111101110100000000100000011101000010001000101
00010000100000011101111011110100010000111100111100000111110000000111111110111110000010001011111110110000000001111111111011111
11001110011100011111111101111000000111010000000000000001101000010111111100000001111011111000001111000000100011000010010100100
11111110111111111110111011110000011000010000011101000110010000010111101101000110001111110111101111100011100010000100001011110
00000111101111100000001010000011111111011111100000111110010000010111100001100000000110000100010001001111111110001000011011111
00001111101111111111001010000011110000101110100000000011111000000111110000011101000110001000101000111111000001000010011000101
11111001000001000011111111111111111000001111011110111111111000011000001111100000000010000100010000001111100000111011110100011
00001111100000111111000110011100000111111110000100000111111100001000011111000100000110000000010110110001011111111011111000000
00001001010011000001111001111100010111101110111111111111111100000000110001011111110110010100100001111110111110000110000100110
00010000100100101000001000001100010000000001011110111111110100001111000000011010110101110111100111101111111101111100000000110
11110111100001100001000111110000000111110000000000000001111100001000000001100010000100001100101001010001100011000000000100111
11101111111111111011001010000100010111000001000101001100000000000111000000000011000100000011100111111111000000111101101111010
00011110100000100010000010000100001001000000111110111110010000011000110000111100111011110100010111111001011101000011111100101
00000000101111011101111100000000000111110000111110000110000111111111101110000000000011111000010110110000000011000001111111111
00001000000000100001000101111111101110110010100100000010001011010000101111100010001011101100001001000000100100000110011111111
11100111101110000001000111110100000000000000011101111010001000010000001111100001000011110011111111100010101100000100000000001
11101111000011000000111011111111011111110001000010000100000011110111100001000011000101101100001000000001100100110110000111111
11110000010000011000000010011100001000100000000000000011111000011110110001100001001011111011011110011111011100111010001100000
11101111010010001001001010000111101001101111111111111101101011111111101111000001111110000100101000000001011111000000010100000
00011000011111100101010100001111110000100000011111000100001100101000001110000100000101111111010111001110000001001011111111100
11101101101000111000001000000000001111000001111111111110001000001000011111100010111000000100001111110001000010000010000011100
11111111100000100001001010001000000111101111000001000000000011101111100001111110111010000111110111110000100000000100001000001
11110110110010000001000100000011111000000000000000000000000011111111110001011110000010001111111111110000011111000010001100000
00011000100000100000111111111100001000000000011110111100001000001111110001011111111011111011111000100000100011000110000111111
00001000010001100001111111110011101111111110100011110101100111101000001111111101110011110100000111101110111010111100001011101
00110000101111000010001011111100001000110000100010111111110100011001000001011111111001101100010001001101011110000110100100010
11111000101111100100000100001000010111110000000010000100001111111111000001000000000010001011101111111101111100111011111111101
11111000010000111000111101110100000111010000000001111001111011111000100001011011110011111000001001000000100000001000000100000
11110000110001000011000100000100111000011111100101000010000000100110110000000011111110000100010001010110001001000110010000001
11110000000000011110000010000100000000000000000001000100001000010000110000100001000010000100000000011110111101111111111011111
00000000011111111100111000001100001000111110100011111101111011111000000000100000111010000100010000010001011100000010001111111
00010001000001000100111100001000011000100000100110000001111111101000100001000000000010000100011001001101011000000010010000010
00001000100000111110111101110011100111111110100001000000000100000111100000111110000010000000010000100000000000000101111000010
11100111000001011011110001110111110110101111111111000110000111110000100001011101110101110000000111110011000001111111111111110
00000001000001011111000011111000010000110000111111001010001000000000011110100111000111111111111111101111011011111100000011110
11111000100010000010000000001100110000000001000110000100000100000000110001000010000101111011111000011111111100111010001000000
11111111110001100001000001111111110111111101111101001011111111101110111111000000111111110100000111100001100001000000001000000
11110111110001000010001000000100011000000001100001000011111111101000100001100011111010000100000000100000111101111000000100101
00000000110011011101111111111100001000100001100100111111111111111111100001011111111101111011111000100000011111000010001000000
00001000100001011110000010001100010000010000100010111100010111111000110001011011111110000100000111111110111111000011111011111
11010111110010000011110111101100000000000000011110111111110000101000000000111110111000001000000000010000100011000101110111111
11111000010001100001000110000111101111001101111110111111110011101110101111011011111111101111111111110010000111000110000111011
11111000110000000010000010000100000000001110111111111001111111111000100000111110111100001111101000111110111110111100001000101
00110001101110000001000011110100000000110010111110000000000000100000111111011100111100001100010000001110100000001000010111100
11011111001111011111000011101011110110101111011111111011101111001101101101100000111000001011110111110001100001000000000011001
01000001100001011111000000010000011000011101011111000010001000011111001111000000000010001111111000000000000000111101111100001
00001000010001000010000110001000010001010001100001000110000100010000101111000101000000001011111111010001000001000110000011100
11111000110010000000000110010000101000010001100011000010001100000000100001100001001000001000011000011111100000000000010000010
00000000100010011111000111111111101111110001011110110110000000000111111111011101000110001100000111110000000101000110001100010
11101000010000011010000001110100001111110001011111000000011011110000000001000001000110000000000111100001100100000110001100000
00001111000010011110110100000000000000111111100001111111101100000111011111011111000000000000011111111110111100000110000100001
11100111001111011011000011100111000110001100100000111111110111010110010000111011111111110011011111011111100000000001111100000
00100110111101100000000110010100010001010000100001000100011011110111100001000000000011111000010111100000011111000000001011101
00010000000000100000111010010100010111111111100000001000010100011111111111100000000011111111101111010000000110000000000111110
11111000011111111101000000001000000000110001100011000110011000001000100001000010000010000000001000000000000000000110001000000
00100001001111111111000000001100100000010001011111001100000100000111010000000101000110000111011000010000100011111001110011011
11001110101111000011000110010011110111111111100111001110001000000111100000000010000101111011111000001111011110111110000100010
11101110111101111001000101110111101000000000000101111010000100110000110010100000111110010000000000111111000011000100000100101
11111101111110011101111000000100001111110001011100000110000111111111101101111101111011110011101110100000111111111011110000000
00010111100001000011000000001100011111111111000000001110011100000000001101100110001110001011110000000000111101110101110111110
00000000000000100011001000100000001111100001100100111111111111011001000000011011111101110000001000001100111011111100011000011
00001000000011000111000110000011111000100010000001111010000000000000010010011101000001111000000000111111100010000001111100001
00010001010000111110000001111000101000010000111111110110001100010111110010011100001010000100101001000011000110000001111100001
00010001010011011110110101111100011000100001111111111000001000010111101111000000000100010000001000000010001000000101110111101
00011000010000100000111110010000010000011111000001111010000000001111011111100010111111110100000111110000000000000100000100001
11100001001110000110001010001100001000010000011100111100000011110001000011111110000000000011111000111111000000111001100100000
00000111101101011010111011101111100110110000100010000000000100000000111111111110111110001011111000110000100001111101110111100
00100111101101011101111010010011110000000000100101111111110000000001110010111010000000000000011001101110011101111110001100110
00001001100100000011001000001111111001101110011100000110000111110000110000100110001001111100000000110001000001111111111100000
00000000000000111111000011111111111000001111011111000000000000000000000000000000000001111100000000000000011110000000001000001
00010000101111111110111100000000001000100000011111111101111000000111111111111110000000000000000111111111100000111111111111110
00000000000001111110000010000000001000010000000001000000000000000000100000000000000001111100001000001111100001111110000011111
00001000100000011110000010000111111000000001011110111010000000000111111111100000111011111011110111010000011110111111111000000
00010000001111000000111101111011110111011111100001000001110111110111110000111111111111110111100111100001000001111011111000010
00100001010001000000000011111100000000000000100010000001111011111000100000111111111100000100001111111111111110111110000011110
00010111110000000001111110000111110000010000100001111101111100010111010001100000000000000011111001010000111110111100001000011
00000000100001000000111111111111110111111111011110111111111100000111110000000000000001111100001000011111011111111100000000001
11110111101110100001000010000011111111111111100000000000000011111000000000100000000000000000001111110000000000000010000111110
00000111011110111100000011111100010111111111111111000000001000001000011111100010000000001000011000010000100001000010000011111
11111000001111011111000000000100001001000000100001000011111100100000110001000000000000001000001111110001000000000011111011110
00100000101111100000000000000000001111100001000010000001111111111000000000100001000010000100001000000000100010000100000000001
00010000100000111111000101111100011111110000000000000100001011111000101111100000111110010000001111110000000000000100000111101
00000000100001100000000010000100001000010000100001111111111111111000010000000010000000000100001111100000100001111101111111111
11111000000001000100000011111111110111100000000001111101111111110111101111100001111111111111111000000000000001000001111011111
00001000010000100001000011111100000000100000011111111111111000001111110000100000000000000111110000110001011111000001111100011
11001000000000100011000000000000001111100000000000000000000111111000001111100100111101110111111111111111100000000001110111110
11100001000000000000000000001000000000000000000000000110000111100111100000000011000111111100001111010001011111111111110111100
00000111101101111011111111101010101111110000011110111001111011111111111111100010000101110111100110010010011111111011101011101
00110001100001000011111010001000001111010001000000000100001000010001000100000110001010010000001111110001000001111101111011100
00000001010010100010010010001000000001000000100001001011111000000000100001100010110010001111111000100001011111111101111100011
00001001010010000011111110011011100111111111100000000010000100000111001111100000000110000111111111110001011110000101111111011
11110000001111011011111101111010111111111110000000110011101000001111101110100111001011110111011101110010100011111001110011011
11001111101111011101000001110100001001010010000011011000000100100000100001100110001100001111101000100000000011001010001000011
00010001101111011010101110001100010000001110111101000111111000010111011110111100000010001011110111100000100011001000010000010
00011000010010000011000100100100001010000010100101000001110111100000111111011011111011111100100001000000111111111110011011110
00011000110000100001111110000100001111100011100001000001101100010000110000111100111111111111111000111100100000111110010000000
11111111100011100001000011101011101111100000000000111111101111101111100001011011111111111000010000111110111011111100000100010
00010111110010111101000011101000010111101111100000111000010111111110110000111101111111100000000000101110111110000011110111101
00010001010010100001000100000000111001000000111101000100011011110111011111000010111101110000010111101111000000000010001011111
11100110100000000011000110001111111000101111000010001010010100110111110011000111000110000111101000101111100010111101111000010
11101000010001011010111010001000000110011111100001000010000111110001001101100011111011101100110000001111000010000000001111111
