11000001011110000111111110100000001000100010111101111000000100010110110000100000
11110000000000100110010000001011110111101011000000001101110100100001101111011011
11110001010000011000101110100100001110101111000001110110000100001011010000111111
01110111000000100000111010010111110001001011000010111101111011100110010110100010
11100000000011110110111110001000010110110000000100011011101011111110101100011101
00100000001100000101010101101000100111000001000101000000100111101111111100000111
00000111101001000000000001111100001001000011011111010001110100010000100010011111
11111000000011000000000011011101100000111110000001110001111100111000011111011000
00110111010010100100111001100010101001010110011111111101111110111000001111111000
11000111100011011011111111111011001111110000111000110110011000010111110001001111
